TRT-8401-EntropyCalibration2
input1: 3dd9a18a
input2: 3e5cb83b
/corr_pw_reg/conv_kernel/conv_kernel.0/Conv_output_0: 3beb656e
/corr_pw_reg/conv_search/conv_search.0/Conv_output_0: 3c5569f5
/corr_pw_reg/Transpose_output_0: 3beb656e
/corr_pw_reg/Reshape_1_output_0: 3c5569f5
/corr_pw_reg/MatMul_output_0: 3d637d94
/corr_pw_reg/Reshape_2_output_0: 3d637d94
/corr_pw_reg/CA_layer/avg_pool/GlobalAveragePool_output_0: 3c4a28eb
/corr_pw_reg/CA_layer/fc1/Conv_output_0: 3c20c13c
/corr_pw_reg/CA_layer/relu/Relu_output_0: 3c280510
/corr_pw_reg/CA_layer/fc2/Conv_output_0: 3c007fbc
/corr_pw_reg/CA_layer/sigmoid/Sigmoid_output_0: 3b9c6757
/corr_pw_reg/CA_layer/Mul_output_0: 3cff8868
/corr_pw_cls/conv_kernel/conv_kernel.0/Conv_output_0: 3be06f9b
/corr_pw_cls/conv_search/conv_search.0/Conv_output_0: 3c655e8a
/corr_pw_cls/Transpose_output_0: 3be06f9b
/corr_pw_cls/Reshape_1_output_0: 3c655e8a
/corr_pw_cls/MatMul_output_0: 3daa394d
/corr_pw_cls/Reshape_2_output_0: 3daa394d
/corr_pw_cls/CA_layer/avg_pool/GlobalAveragePool_output_0: 3bd8f684
/corr_pw_cls/CA_layer/fc1/Conv_output_0: 3c09dede
/corr_pw_cls/CA_layer/relu/Relu_output_0: 3c0bd203
/corr_pw_cls/CA_layer/fc2/Conv_output_0: 3cab3bf2
/corr_pw_cls/CA_layer/sigmoid/Sigmoid_output_0: 3b955626
/corr_pw_cls/CA_layer/Mul_output_0: 3d350403
/cls_pw_tower/cls_pw_tower.0/Conv_output_0: 3bcbc853
/cls_pw_tower/cls_pw_tower.1/Conv_output_0: 3c0deeec
/cls_pw_tower/cls_pw_tower.3/Clip_output_0: 3c1083d8
/cls_pw_tower/cls_pw_tower.4/Conv_output_0: 3a7abc7c
/cls_pw_tower/cls_pw_tower.5/Conv_output_0: 3c04921b
/cls_pw_tower/cls_pw_tower.7/Clip_output_0: 3c0a1b79
/cls_pw_tower/cls_pw_tower.8/Conv_output_0: 3a731b5e
/cls_pw_tower/cls_pw_tower.9/Conv_output_0: 3c07af8a
/cls_pw_tower/cls_pw_tower.11/Clip_output_0: 3bed75a4
/cls_pw_tower/cls_pw_tower.12/Conv_output_0: 3a8074e3
/cls_pw_tower/cls_pw_tower.13/Conv_output_0: 3bcc98bf
/cls_pw_tower/cls_pw_tower.15/Clip_output_0: 3bd8eac9
/cls_pw_tower/cls_pw_tower.16/Conv_output_0: 3a792e42
/cls_pw_tower/cls_pw_tower.17/Conv_output_0: 3bd48a32
/cls_pw_tower/cls_pw_tower.19/Clip_output_0: 3ba5da07
/cls_pw_tower/cls_pw_tower.20/Conv_output_0: 3a5b667e
/cls_pw_tower/cls_pw_tower.21/Conv_output_0: 3c5211eb
/cls_pw_tower/cls_pw_tower.23/Clip_output_0: 3c5211eb
output1: 3d41b4f3
/bbox_pw_tower/bbox_pw_tower.0/Conv_output_0: 3be78fba
/bbox_pw_tower/bbox_pw_tower.1/Conv_output_0: 3c0bb707
/bbox_pw_tower/bbox_pw_tower.3/Clip_output_0: 3c0c37dc
/bbox_pw_tower/bbox_pw_tower.4/Conv_output_0: 3a8f03cd
/bbox_pw_tower/bbox_pw_tower.5/Conv_output_0: 3c0294e0
/bbox_pw_tower/bbox_pw_tower.7/Clip_output_0: 3bfa21f8
/bbox_pw_tower/bbox_pw_tower.8/Conv_output_0: 3a8b7c73
/bbox_pw_tower/bbox_pw_tower.9/Conv_output_0: 3bfae212
/bbox_pw_tower/bbox_pw_tower.11/Clip_output_0: 3bdbef25
/bbox_pw_tower/bbox_pw_tower.12/Conv_output_0: 3a9f5e4b
/bbox_pw_tower/bbox_pw_tower.13/Conv_output_0: 3be7942e
/bbox_pw_tower/bbox_pw_tower.15/Clip_output_0: 3bc3fd12
/bbox_pw_tower/bbox_pw_tower.16/Conv_output_0: 3a8efece
/bbox_pw_tower/bbox_pw_tower.17/Conv_output_0: 3c01a4b4
/bbox_pw_tower/bbox_pw_tower.19/Clip_output_0: 3bc7d5f9
/bbox_pw_tower/bbox_pw_tower.20/Conv_output_0: 3aaba594
/bbox_pw_tower/bbox_pw_tower.21/Conv_output_0: 3c0e7f7d
/bbox_pw_tower/bbox_pw_tower.23/Clip_output_0: 3c0b9b20
/bbox_pred/bbox_pred.0/Conv_output_0: 3d101feb
output2: 3f25d2a7
